{"Layers":[{"Bias":[[1.0444933580699335e-09,6.124654385396804e-10],[-1.5291281580702457e-09,-3.4691781139890866e-10],[-2.707189366515923e-10,1.028849734042189e-09],[7.526351896104535e-10,2.991776760144089e-09],[-2.3269466675657784e-10,-2.0203754755380245e-09],[-4.684414536505063e-10,-8.576085796863953e-10]],"InputChannels":1,"Inputs":16,"Kernels":[[[0.15970320513183733,0.061089768620255516],[0.02362229832648069,0.032347479096351724],[0.10722846599475314,-0.05516906102528494],[-0.04068598282934917,-0.06814017932212955],[0.24422028297581827,-0.018028655276448896],[-0.03368747459165916,-0.1213657923514164]],[[0.0024295453414857698,0.14144459313733942],[-0.001306166840630379,0.022584090180932725],[-0.029893195486774833,-0.0757093033825263],[0.1334431620684408,-0.04963680997005523],[0.23915559846855514,-0.06626258182937016],[0.0005818974997606364,-0.10554220489755543]],[[0.08069772737867513,0.15563523897574916],[-0.0657414499661822,-0.11703278735098961],[-0.18383952096469414,-0.11617243172458754],[0.13881008374115447,0.033130897388610824],[0.23535350477173494,-0.09141296946252812],[0.04177092309619674,-0.06386720507102699]],[[0.24856924619953177,0.1181163832627787],[0.017242432881447427,-0.05125323627561235],[0.1624078066887943,-0.05191416800457689],[-0.035467844566822934,-0.1697688054675302],[0.2259094850846756,-0.22666893034687774],[0.10330450420023081,0.2298399549272617]],[[0.06990798120698953,0.08271527126561068],[0.08308678666558346,0.06390363436629462],[0.06262288094716247,-0.12194412091379386],[-0.07076707326238346,-0.11944206211770776],[-0.0467994040347316,0.16228393103126662],[-0.03580441770107815,-0.1920475918640826]],[[-0.02921699505810235,-0.10863437881911002],[-0.02530494926295797,0.16602288880394378],[-0.1615571292114014,-0.10532482432345718],[0.09926908653073602,-0.021136818683155735],[-0.16230503887500133,0.27122725057254765],[-0.018419668282104604,-0.11422142434800935]],[[-0.10069813618474212,-0.08406363069369598],[-0.11926302200472674,0.21041166820020768],[-0.3318095768266368,0.04804006926806952],[0.3090266340842328,0.15928236650369],[-0.23180706675345059,0.1546580670863616],[0.0031066501827759106,-0.11682504058310526]],[[-0.022645543729439346,-0.06793067065812636],[0.03891066392157129,0.19280673411552335],[0.22418103793832272,0.02276757141872022],[0.2448710923590792,-0.12522366049136097],[-0.2229167243397655,0.16389804010496284],[-0.009743479913501657,-0.10710673006032263]],[[-0.1419176405557496,0.09073771882858478],[0.11742048136491813,-0.049310139307327736],[0.13644641938163216,0.09910870104156458],[0.18603866583418646,-0.04875847406568429],[-0.130208750938029,0.0613182004795639],[-0.047249036140236476,-0.19746289267478262]],[[-0.09628096683767436,0.10470045287526392],[0.01608095280769676,-0.015172556577604933],[-0.1933627097488795,0.043122368015253244],[-0.007192652680575695,0.04644215568545913],[-0.00023497488531766002,0.007152009664009201],[-0.038758290274298064,-0.09675900970355804]],[[-0.1323856164583047,-0.33342177942396695],[-0.3209079921543108,-0.09350745051245928],[-0.3780505222614057,-0.004078075251454867],[-0.06242653604187673,0.3149360586615306],[-0.14654464154005936,0.18067885874905035],[-0.006920906550656496,-0.016531939304437887]],[[-0.38625698496013805,0.21404475616617183],[-0.13019213088119513,-0.05352510782411211],[0.20556021713382192,0.4931986053786444],[-0.23088741773861665,0.08803976123105442],[-0.014878630103561755,-0.0444468504299889],[0.05449088646190885,0.15694466669856]],[[0.011202313274457145,0.04272822121104517],[0.18460178851972042,-0.04908592224949434],[0.13340654878560734,0.012809787889471938],[-0.23544641740418565,-0.08044055292327486],[0.04178322331171769,-0.09243105911567451],[-0.0495439195641761,0.20714430326953187]],[[-0.0855628111145662,0.013996896425836547],[0.2062084630718294,0.04829510106485291],[0.02982032303948582,0.017811217983809705],[-0.046939870537160755,-0.042158870017122915],[0.019714186062863834,-0.03655691300600629],[0.05384644854024508,-0.025654107895972743]],[[-0.20271123853760561,-0.2193298167340524],[-0.4037375870143173,-0.32418222870997954],[-0.13509513681309043,-0.2100180804582537],[0.21442074012559462,0.22640884893287977],[0.06345417443731491,0.2904341477876467],[0.14801680409469423,0.12737657318033418]],[[0.028901085316162083,0.020947459739595223],[0.3372448804580149,0.05265054937683113],[0.2708012715121304,-0.014334932421026191],[-0.06663499744190714,-0.23976498963372428],[-0.0033067972342947748,-0.18418584065773308],[-0.19094937202733117,0.3005244325317405]]],"Name":"Convolutional","OutputChannels":6,"Outputs":96,"UseBias":true},{"Name":"Lncosh","Size":96},{"Bias":[[-0.1930612110901282,0.42081658865076477],[0.10271520341046454,-0.10344599200889616],[0.17273879366900236,-0.6301391036961762],[-0.06771776798918666,-0.07254937608219732]],"InputChannels":6,"Inputs":96,"Kernels":[[[0.17919155039968065,-0.057927773975108225],[-0.14875999257859274,0.05956969033491731],[0.033422827533355105,0.0767937757582981],[0.1303316976427069,0.1833031936813188]],[[-0.08347856935747226,0.09018558227124286],[-0.24797332310763953,-0.09940330492540132],[0.12720135719030884,0.06978394525371857],[0.06529781625621507,0.02356032457489855]],[[-0.08317978837739186,-0.005961127098828599],[0.05817712846602122,0.051425987566780976],[0.10144638617566877,-0.049567814436665476],[-0.11223510959877338,0.23272937043266154]],[[0.01766317571561715,-0.09392581644824732],[-0.0632357491660016,0.09084780151979667],[0.007445148350786063,-0.17826605600630122],[0.13745855105036156,-0.15347718087850606]],[[0.06541547295500572,0.14051821695616368],[0.10170296031557553,-0.10435679046228316],[-0.09347884764238117,-0.06808899244506907],[0.31392735438344876,0.1429657189189858]],[[0.020874900220701022,0.18375383249112268],[-0.2992639068857789,-0.0056786399323935696],[0.0716941005604955,-0.22322979453086383],[-0.07657063808940737,-0.09707427469076535]],[[-0.04694749502608788,0.08755858173804643],[-0.2726202287821614,0.09372192376148737],[0.2430722486111533,0.003217894354447074],[0.14620168868046102,-0.17246735466294003]],[[0.023360020296378556,0.16924578804030666],[0.2125025214347826,0.10186382989159683],[-0.1480625593990102,-0.2045159463409078],[0.10379415762102061,-0.21193844002037204]],[[0.13585667844822596,-0.07843763757900701],[0.009088219930976811,0.2197294934923008],[0.07162984289974106,-0.13398513018902644],[-0.12999357225198493,0.05910559399120961]],[[-0.0553162769364917,0.0443474237576971],[0.5000551767191997,0.15212515069835353],[-0.27892648590002456,-0.14693408367792976],[-0.1826143603897466,-0.24708828255363985]],[[-0.11430048410394361,-0.07330061774013687],[0.024884251112839165,-0.0011527725864802108],[0.035920819576704906,0.1745516497970359],[-0.1953687896433849,0.16994745872413256]],[[0.07367301308452044,-0.16923831939982886],[-0.07538738613080406,-0.011670970715230848],[0.09542849920223617,0.12961610709295754],[0.00236341698141723,0.13198178749928935]],[[0.058638271186809594,0.1093644965599781],[-0.00839507071346146,0.18196462558413612],[0.005540369914268089,-0.10582635463973496],[-0.027288259725305273,-0.11804271398077508]],[[-0.09832033175401522,-0.06989217035395441],[-0.04280108428104343,-0.05552277018754809],[-0.026017749484409138,-0.09017790404485312],[-0.2304485126670979,0.020602806245474625]],[[-0.11432251401284162,0.2704897754083392],[0.16839384361927748,-0.09601080624437942],[-0.18005657531400948,0.3386224079128544],[0.14719811514142028,-0.1336887190437854]],[[-0.04768584803510323,0.14702958406187427],[0.029149060257637534,0.01995867191076242],[-0.004494343376271201,-0.018999164487464037],[0.07585894856559608,-0.09090963107208837]],[[0.04277313192887656,-0.03876546869521818],[-0.13864083412274497,0.07146147396048008],[0.006496931482388048,0.08624528490712854],[-0.06625332905173707,0.07165356217483461]],[[-0.12261673589290761,-0.048381218333673384],[0.02741837883979551,0.05710389781799089],[-0.02562892680627089,-0.09907400022465619],[-0.010569658779992346,-0.29870705069228304]],[[0.09838613213672845,0.02782362430325459],[0.011003867557660271,-0.09053467254262484],[0.032840446508228094,0.023233884816538108],[0.22602534849947414,-0.3696306082231543]],[[0.18000599272929046,0.26356556356661026],[-0.16341164924839283,-0.1513103894316932],[-0.017354364084101428,0.004731672284824326],[0.07775019977281848,-0.0610759924468535]],[[0.46710117022757913,0.28396310237864497],[0.23854191113656542,0.19737363133373154],[0.08826495480134282,-0.13938535560123333],[0.005863836918987165,-0.1478785201151924]],[[-0.3098353547193319,-0.12111979838241396],[0.08511968893236128,0.053163372347186745],[-0.11314013589770804,0.169983899676708],[-0.10307821585282394,0.002858590529952656]],[[0.16609836925047242,0.12899520192140043],[0.03993946531259276,-0.1888450286753402],[-0.0070813300207130435,-0.007190121651024081],[0.004702708672155815,0.08296413760902488]],[[0.029483274023530483,0.14074706949321708],[-0.1504338110235025,-0.25174261627839295],[0.040079380783243614,0.1879065126087894],[-0.012651497564932519,0.08835926264120718]]],"Name":"Convolutional","OutputChannels":4,"Outputs":64,"UseBias":true},{"Name":"Lncosh","Size":64},{"Bias":[[-0.3421339843102287,-0.33041640254790516],[-0.04470875436493578,-0.9872483976615983]],"InputChannels":4,"Inputs":64,"Kernels":[[[-0.0981556486029217,-0.04412990358848318],[-0.166204472475408,0.2154455497615419]],[[0.11840717293736629,-0.4193972332204564],[-0.22454759416596284,-0.12296284760293115]],[[0.5364527614231235,-0.17208926050112772],[-0.08385723697673043,0.09962976964918109]],[[-0.07981631781626145,-0.27590134306429326],[-0.10675487753976401,0.40111619031649864]],[[-0.0955535995841033,0.23084983035404935],[-0.11662661014268824,-0.4692423924773953]],[[-0.007484354186685758,0.16060196940372354],[0.22510025468090966,-0.0445498297944618]],[[0.13593503395266054,0.12262101927935783],[0.35886433836760834,-0.03403076858844225]],[[0.6594043761792129,0.26157542130475614],[-0.10242007418002289,-0.05408553524256949]],[[-0.4141124232400229,0.15200293740423615],[0.016346871864048883,0.21725876184005843]],[[-0.4641261032720013,0.005530346435100014],[0.0334274635591998,0.2138334326619389]],[[-0.06183532153305406,0.05670834789922483],[-0.06952245517380454,0.10271606873504605]],[[-0.1429021891719486,0.028514472367257022],[-0.019294520767997026,0.10526587681810212]],[[-0.2960370404559422,-0.3202847845673563],[-0.09278074041074759,-0.0005348395096674737]],[[-0.1122319307073199,0.010091623614272039],[-0.10713789491689751,-0.32336929926580277]],[[0.3388856678656461,-0.042511431531337275],[-0.2073443650057997,-0.16884409624216903]],[[-0.06614093735206565,0.15214246927613662],[-0.16788976642914533,0.05547179813401183]]],"Name":"Convolutional","OutputChannels":2,"Outputs":32,"UseBias":true},{"Name":"Lncosh","Size":32},{"Inputs":32,"Name":"Sum","Outputs":1}],"Name":"FFNN"}