{"Layers":[{"Bias":[[1.6159240596745328e-09,1.4489309814929589e-10],[6.910899023897113e-09,2.8488790323983827e-09],[1.105734801551599e-09,-5.983822762228753e-10],[-1.1060739171862051e-09,-3.2555474898304807e-10],[-5.9390394307973135e-09,-2.9280638170224335e-09],[-8.393920403820841e-10,4.1633692466634885e-09]],"InputChannels":1,"Inputs":16,"Kernels":[[[-0.02524357923300892,-0.0797228303852054],[0.1563278583725815,0.050859002749325144],[0.04768222412870642,-0.20340458028073835],[-0.0036234903021649324,-0.0876756359895813],[-0.08431467884457061,0.011511837448109864],[0.015212008461753605,-0.17085852945393964]],[[-0.03971931071013077,0.16061265261127894],[-0.04557563128314128,-0.16687125812257042],[-0.10532938925930532,0.13602494484343355],[0.14059069356006282,-0.09225806711070735],[0.07924867728870987,-0.1200161281766426],[0.2810868309919136,-0.02705220305313974]],[[-0.01787700901131692,0.13146847394855854],[0.22184583077048925,0.049529615471711565],[0.1146499533883268,-0.14268521611684934],[-0.007275469827583571,-0.03453290351245739],[0.09774757247202549,0.017121629968184914],[-0.3378718270601461,-0.14676584810229493]],[[0.22725827630076095,0.08422186808418558],[-0.32470021065849725,-0.0872007556807293],[-0.011141725511516038,0.330739398971665],[0.13174628271045452,0.11961502192278572],[0.1705237976147059,-0.04287738143380722],[-0.03266902928078003,0.10209642072646792]],[[-0.06571114608481496,-0.00326244551931307],[-0.4326383504767553,-0.0820916014517093],[-0.16571845232347965,0.0878584666774531],[0.1160426839255311,-0.02144799106839461],[-0.030086833560684707,0.017662180688619713],[0.12350013166022074,0.10926274037471072]],[[0.005413497224049605,-0.04663203242006397],[0.08879900569705955,0.02410911888404625],[0.04739364701160556,-0.19597608914752035],[0.09319181749666239,-0.08443466406134734],[-0.2283442354816229,0.1440633102362487],[0.03163195860353257,-0.24678981495951988]],[[-0.2424239854129023,-0.2571667780777909],[-0.19580397909916564,0.06825320361335438],[-0.2302884974709248,0.29360717732422015],[0.13161511857003935,0.030558198624270456],[0.06398878168663463,0.3691633338191368],[-0.05225149606440482,0.2394528026891259]],[[0.08775518141047098,0.03051425877615704],[-0.014424570183635172,0.19086241124545006],[0.08250983630076053,-0.11198039322637132],[-0.06269436450149522,-0.14887387357080648],[-0.09504273971967671,0.051178754482576715],[-0.20069643925956585,0.06511113017002047]],[[0.02869310397948907,-0.14275189666807783],[0.21885510798881702,-0.09996889890559665],[0.05069544974822461,-0.21152917486369094],[0.06375006910619845,0.27320422764410285],[-0.18225638817756976,0.004190257056304777],[0.10187896251834223,-0.10506312085462811]],[[-0.11576335160003441,0.21018453069597648],[-0.14043965721613685,-0.1340752637665741],[-0.1059442503208111,0.1370976854680433],[0.11694695757316971,-0.1860494648357119],[-0.0031845469331416125,-0.0991385198978947],[0.25861740801995337,0.012968506684105452]],[[0.1308936409873584,-0.01149614015671568],[0.19119542149473037,-0.11216353924443008],[0.11569263172747259,-0.14431648047747828],[0.0011504319977549758,0.3090195896950905],[0.47161341557669995,0.016636265233909216],[-0.18798155850835063,-0.1907168897933923]],[[-0.24407010512488875,0.2116494018514021],[-0.38136168955038374,0.06884848479037076],[0.01265160796285396,0.33093629648675743],[-0.1462852992168398,0.060689461340377185],[-0.00504451284238726,0.004404519256143614],[0.0060474040562901185,0.08076338766950278]],[[-0.14794993163615014,0.0197911048266415],[-0.0968053388148353,0.012646476121256498],[-0.13029416050820977,-0.13837816141886228],[-0.06028213020268328,-0.005112199875289396],[0.008481787565498364,-0.10280126015878872],[0.23096202235289576,0.033968117293928714]],[[-0.02289560131264579,0.052983196528474226],[0.3564581486820468,0.0018743260845373506],[0.13253957702342817,-0.14208110310329794],[-0.027579062601387185,-0.07606090854924469],[-0.15453096884288886,0.17660969820918887],[-0.09426176646342029,-0.14091842624410436]],[[-0.3275818225379666,-0.19177519376349322],[0.055370995067403755,0.11837222743585903],[-0.17451358601078135,0.0731263861619574],[0.028943492263270906,0.03680709768394027],[0.019513578213535762,0.07394988863843173],[0.10139297723499832,0.09829263621116476]],[[0.11333083021594215,0.0874359622652084],[0.2966590540926251,0.13656443881250782],[0.23016903223374818,-0.11862650146037378],[0.06613600891449739,-0.19930213605446578],[-0.006665436966595843,0.06316399051614963],[-0.27315188332938134,0.13713968168058008]]],"Name":"Convolutional","OutputChannels":6,"Outputs":96,"UseBias":true},{"Name":"Lncosh","Size":96},{"Bias":[[0.38666763285244937,-0.1810475354882541],[0.34672044285502224,-0.03594164447358995],[0.2991187635252261,-0.4082587854007386],[-0.14609044147884837,-0.01698841670366788]],"InputChannels":6,"Inputs":96,"Kernels":[[[0.13101520493478727,0.1103941298329293],[-0.076788168890106,0.032847790856149084],[-0.16720881431996548,-0.19053706051135227],[0.04584891059976827,0.07206737245924645]],[[0.01489155441755515,-0.015435435130151259],[0.01818755327623076,0.04294856933799698],[0.09655301892005991,-0.029441772726471294],[-0.15202774830639998,0.045290909109301294]],[[0.09683234348538981,-0.0877470323670269],[-0.15772784559206274,0.07718976821682982],[-0.1309847356055662,-0.01700108374895381],[-0.03503960534524881,0.07392978170758102]],[[0.03650210756012131,0.1098532348048566],[0.04977848585874248,0.08317511727644242],[0.054833689208129754,-0.14440824102312066],[-0.07594226394153356,0.1242604997500294]],[[-0.0691457522427429,0.08031865198189374],[-0.03704288391214517,0.04945246318432174],[-0.09270680379475288,0.003228056566556924],[0.18962759371063165,0.35735849437121747]],[[0.03529736371252443,0.13788611478711532],[-0.07149009945476163,-0.2184391874075219],[0.035558671451220075,-0.09296917694624898],[0.15881757853392695,0.07283836899220841]],[[0.08072241757287646,0.045508071556620046],[-0.04709018226325584,-0.06449454181427938],[-0.18713492984930244,-0.12025632413217462],[-0.03840299648394354,0.10680209693365228]],[[-0.12402976079350735,-0.06082522342022828],[-0.023439672079005054,0.06425773096341558],[-0.14387617755737345,0.11133882127010607],[-0.13672015307971527,0.04378696820369617]],[[-0.12735351374459716,-0.24745484664398582],[-0.24216156790652138,0.1364277500716667],[0.26637912015280996,0.08801707515764377],[-0.01701286122405994,-0.03171995363203435]],[[-0.22108255414471048,-0.0475134597549858],[0.08984605639072289,-0.0029961638203918188],[-0.046758958383287946,0.18564659112180454],[0.17897251154805954,-0.1323024752487769]],[[0.09467976713096568,-0.21762129375262837],[0.36271826069461566,0.11144633713687191],[-0.17572389597819094,-0.10833160303740713],[0.11062506246916586,0.301030596534693]],[[-0.1954046398437272,-0.11883557604897925],[0.07858655875955066,0.0649847001771495],[0.041729931426637494,-0.06435280303341118],[0.056103586876161377,-0.2447711398125946]],[[0.04568253462702987,0.13382568675280726],[0.05790555250543207,-0.2176197339092471],[0.06650846277547032,0.10191212066228192],[0.06037966799541659,-0.2356554617657906]],[[0.07588804708061765,0.09631454658376194],[0.06362529567237092,-0.022849095258823338],[-0.09801490869040783,-0.10835870667635775],[-0.12059066789641298,0.08006361372902426]],[[0.06256579651751464,-0.033120824507366156],[-0.08907880707022604,0.055172331440634007],[-0.03994998914655784,-0.037154755031427435],[-0.04925389612560767,-0.07095839457764273]],[[-0.09379644349712533,-0.1318446610179752],[-0.012683405448123726,0.036691074924703894],[0.06345866906528794,-0.12275408356638846],[-0.14117854857693152,-0.10752312299724662]],[[0.04178770804846279,0.11190279328263031],[0.07562084438156204,-0.17706388469841874],[0.09843229705860064,0.07291882879873043],[-0.1983307697382756,-0.021907765614506174]],[[0.340904907615488,-0.025156829284275876],[-0.15096760623056119,-0.006488562993232235],[-0.0739527690127084,-0.09142479860684062],[-0.07951471658069656,0.0034016567844000092]],[[0.1411858324981403,0.10482335772557061],[0.1455992299517733,-0.14078526953351614],[0.21408301252924578,0.04127690996129776],[0.04575008363446882,-0.26889696679418795]],[[-0.06002811389704405,-0.0605078625446469],[-0.0003319294264013884,-0.015698018514007626],[0.005601477096054466,-0.06326539869090796],[-0.07048274339831302,0.2018383776014875]],[[0.05843843806309865,-0.021089129908222894],[-0.15449002501592077,0.0759759763780933],[0.04235566698946251,-0.11587853161981983],[0.04982218399844939,-0.03458478087779407]],[[-0.2868736482705632,-0.1922600618597755],[0.27303632789976773,0.12441679594165708],[0.23828063709244096,0.04120148993185057],[-0.0705140170171562,-0.04022305436145726]],[[0.031404577340011966,0.1482844424269512],[-0.09109094856402447,0.08110418338318198],[-0.06453867372254528,0.01853344796405354],[0.2400452814872587,0.22534558020862808]],[[0.04661338660778238,0.014598307559817406],[-0.13669656848866574,-0.024802411789979044],[-0.14216701424579428,0.007511362103112908],[0.1219988425036303,-0.20345382298538212]]],"Name":"Convolutional","OutputChannels":4,"Outputs":64,"UseBias":true},{"Name":"Lncosh","Size":64},{"Bias":[[-0.39479120230813314,-0.46412577757271617],[0.03633278967354303,-0.5763105225246977]],"InputChannels":4,"Inputs":64,"Kernels":[[[0.05745205869097749,-0.0026645443224427726],[-0.1567209301815239,0.21547852121940655]],[[0.14595012785895173,0.06349303811636835],[-0.21698158471464782,-0.12497166793671455]],[[0.16555165225997376,-0.21588421433952057],[-0.3459419285722242,-0.00028260468545678974]],[[-0.0992385141493232,-0.03900415564551646],[-0.19312641056093785,-0.12997922095324038]],[[-0.05921914545107939,-0.003034742789650296],[0.16223564504456559,-0.2880956530281582]],[[-0.35057898661831904,0.38038147903417047],[0.06198601224508682,-0.3879564240030201]],[[-0.08396823804514582,0.3222130892388585],[0.34616252063820085,-0.1351062577176984]],[[0.10914108578229137,0.3037883495696772],[0.02786295770628724,-0.22392819859580773]],[[-0.05739154952012074,0.24952589636380237],[-0.06998797468243505,0.23411916872297747]],[[-0.32415401887844514,-0.052666174501992666],[0.15055520815532242,-0.08509576438009518]],[[-0.18273561630182883,-0.06163737898842376],[0.04846718959319546,0.2523741175737919]],[[-0.020296188382871307,-0.04758015709293574],[0.27056425374046084,0.19040992979580826]],[[0.07643853178691713,0.13891387384394446],[-0.36434482121428374,-0.06032433481649332]],[[-0.07308122448909228,-0.1100932631122126],[-0.11118791220192073,-0.06487967740341667]],[[0.09691330705996705,0.08589552246426788],[-0.28513605268500136,-0.04025829770849502]],[[-0.28859962245637405,0.1982305934519089],[-0.3231945649811503,-0.05843753561913339]]],"Name":"Convolutional","OutputChannels":2,"Outputs":32,"UseBias":true},{"Name":"Lncosh","Size":32},{"Inputs":32,"Name":"Sum","Outputs":1}],"Name":"FFNN"}