{"Layers":[{"Bias":[[-1.3000364530789347e-09,1.6905471859832912e-09],[1.8411986605283568e-06,-2.2241776309153365e-07],[4.400556456127931e-07,-1.6050778019389928e-07],[-2.7116221620632964e-06,-9.489375075967308e-07],[4.2071320625481186e-07,6.13422776596071e-07],[-3.012476071034774e-07,6.930344746868058e-07]],"InputChannels":1,"Inputs":16,"Kernels":[[[-0.013869796207454679,-0.1250522453933903],[0.19924787270101738,-0.08413896375325715],[0.15549389649048795,-0.2258878936439672],[-0.12884462721612197,-0.031359596088406695],[0.1130001175310204,0.16326590774466787],[0.06401286208618884,-0.0804963653324665]],[[0.03182472294444389,0.2909043800534864],[0.06941589490664325,0.26876315001398227],[-0.07729763724164601,0.2577788892094208],[-0.05158940225808689,0.07651639349425639],[0.09723339715039646,-0.032275242971619204],[0.0916891306563129,0.05783562451982395]],[[-0.006965343265681566,-0.10623748378703966],[0.24429118048587475,-0.14188053208879287],[0.173856089342227,-0.15330689777378254],[-0.09394780018749209,-0.06345330580158877],[0.07444201600695553,-0.15018668613057345],[-0.07355621546924049,0.0028066710006101054]],[[0.04311428435940137,0.30368025671667437],[-0.13651251469289188,0.14157944992090019],[-0.1325743649072068,0.20277871943460174],[0.04135424643237921,0.0969319811389327],[-0.02733387499729681,-0.10224066283278851],[0.023615611875745686,0.14230932885681255]],[[-0.19047382360366188,0.1026943454893773],[-0.27289105613,0.18102400416888498],[-0.2338656371723191,0.10876204272511031],[0.05718656971595579,-0.07786735663672388],[0.07830926608805472,-0.04432625446579738],[-0.013883162797179303,0.05769029086163613]],[[0.03928141211789984,-0.12158199282217134],[0.19854484389388632,-0.1467810132363255],[0.1643729090944736,-0.2512773420805613],[-0.09947401747981616,0.04392039104493066],[-0.20592310423462118,0.03178239588651316],[0.06312123497712518,-0.2342532427018061]],[[0.08780436698886745,-0.2607769029152079],[-0.29074298929789405,0.15647623559288198],[-0.06083965867453892,0.2887062684990522],[0.14015528561422075,0.046565630302497274],[0.03494019273804293,0.04173458269686997],[0.09064154821743947,0.16693848641406317]],[[0.026002225515596878,-0.0890210872457448],[0.22163877999161752,-0.15693278149827763],[0.15740928174994936,-0.20160790179726043],[-0.0014606190324221986,-0.03286947818307351],[-0.1378313774774988,0.026901238162321754],[-0.0685404353586364,-0.1451135917773819]],[[-0.0038272109340567236,-0.07921631441020067],[0.16127061634770234,-0.0834766186586173],[0.14562473704468695,-0.1905971987744045],[-0.008020748195797473,-0.11845720676832601],[0.019423076094832365,0.17154484923943855],[-0.0015584889437542826,-0.08497488164711522]],[[0.0010943916184077398,0.22716248460162358],[-0.18379875295777684,0.11427278668793354],[-0.1593079079219043,0.22567058567111228],[0.1117104824843697,0.08989316566579925],[0.04211476435942052,0.17617994568272896],[0.038359696519918045,0.08168588091517259]],[[0.007271607031387784,-0.09934910939909176],[0.20196931768947599,-0.17890998957048013],[0.16642493328366878,-0.11780188533990121],[0.14031531930776,-0.08410364431510726],[0.2288779135696466,-0.01279844693110665],[-0.2382033967563968,-0.07690497827442058]],[[-0.032360167557861974,0.21861020908780046],[-0.4282514852722494,-0.07408740238706228],[-0.20415829627341853,0.1718466206041492],[0.23940024690088907,0.0949292940193174],[0.010024477574299575,0.1198561810531621],[-0.07632278972466076,0.13977368444545335]],[[-0.07637177443559623,0.11780958043059127],[-0.21458338370071672,0.16135365768572427],[-0.28988624030056986,0.027958990257360247],[0.010691103014510626,0.042836646078139695],[0.16320120305679178,-0.054390876245433636],[0.05803335801236666,0.06432311070454812]],[[-0.02116712138560674,-0.10243894875524119],[0.19622493402902347,-0.17066917323723738],[0.18570524007910522,-0.15185988028763628],[-0.07464174342854737,-0.11712476566881667],[-0.16445025349039952,0.008394241939431024],[0.03795260053565123,-0.2782287516118088]],[[-0.23382166163880716,-0.052170799164916834],[-0.21208818425604975,0.1584380069715315],[-0.20127321679773488,0.11028696185474583],[0.012862326326120372,0.13578092013809356],[-0.033132356397673556,0.03274864840796977],[0.10439974634530785,0.1477587077118554]],[[-0.015295009299334158,-0.08535048197873944],[0.22104419619915072,-0.12345918677263026],[0.16163618026993462,-0.11213408446484],[0.021961781346889288,-0.15987774899312662],[-0.22654240172700169,-0.05719579802466551],[-0.11533637075771289,-0.04248237897296547]]],"Name":"Convolutional","OutputChannels":6,"Outputs":96,"UseBias":true},{"Name":"Lncosh","Size":96},{"Bias":[[0.17889443966926052,-0.08990334277788645],[0.14794144016755728,-0.19861044766262947],[0.10556503763075155,-0.9759095778320362],[-0.04486768675374155,-0.030333281155690995]],"InputChannels":6,"Inputs":96,"Kernels":[[[0.030014948130638236,-0.02033045210229567],[0.0638136168144537,-0.08832457114802449],[-0.18019246158050925,-0.22071278202417394],[0.056485410751014785,0.12147823980666057]],[[-0.07742890469352835,0.052881419100838094],[0.13500339266699862,-0.07083377107940364],[-0.0014634556219901471,-0.007340934681875059],[-0.0427421445550949,-0.008102488866664672]],[[-0.1361260090073413,-0.18574677008930401],[-0.01752574763107002,0.07486234768918158],[0.011073760624486778,0.006646408792141564],[-0.07959199736571979,-0.01079728533909998]],[[-0.15754406917466626,-0.06678179215527127],[0.05468055110565865,0.017097663134975294],[0.02424279587699761,-0.07596996260563554],[0.011834744927914963,0.01813372458952396]],[[-0.08394597874812214,0.17671090255495261],[0.08844387969418196,0.03814221298168051],[-0.10477687743710278,-0.16956964199365063],[0.042697124103685306,0.06613237358951222]],[[0.031653677267368174,0.0486142870809988],[-0.018680176165991876,-0.06563940459355745],[0.010733012886497065,-0.16802579119694872],[-0.011127072912308696,-0.0022880691788008333]],[[-0.0159877164675373,0.2176198525944404],[0.15692906532711956,-0.0697088941989798],[-0.0693004502513354,-0.05931048687283628],[-0.03094513104994799,0.02272857908746158]],[[-0.05357622457870302,0.030676112866657935],[0.16868544873876282,-0.00557118313186419],[-0.3243409642185204,0.11288542019311856],[-0.047974345422195155,-0.0016737840482987112]],[[-0.0036899277715968667,-0.042426925370346834],[0.12016557872843757,-0.0010591972485165034],[0.43661956752240594,0.17064568986299172],[0.02039850972566208,0.029022850097324825]],[[-0.04351870792017429,0.046634631144747356],[0.12192794763903901,0.06387697027896859],[0.09223611763273422,0.20317664291972698],[0.017529270838556942,-0.034905888229516804]],[[-0.0730951987986911,-0.170202295799535],[0.1585177553941464,0.03671072963824551],[-0.03759059449791375,0.12081986766018946],[0.0341028550345334,0.05469795157756295]],[[-0.15075235446128415,-0.14951104964073908],[0.08857105234682731,0.09781194221015603],[0.1333291687309318,-0.04781917926985128],[0.04479411415045535,-0.034570871506236896]],[[0.031174609185197953,0.01918364394584863],[-0.010271506729211496,-0.012011069086295408],[-0.1572329137246872,0.06435169524790617],[-0.013884334315713833,0.003153743075354378]],[[-0.016916811038789788,-0.003621967780088574],[0.03716546981512075,-0.03179500835531498],[-0.2626027094057305,0.15293810313264303],[-0.013747947283056556,0.01547587472347636]],[[-0.002412525221438457,0.08044149658132169],[0.06782738312713431,0.029551273564063764],[-0.04084948777379278,-0.041252591630595824],[0.00975270604618366,-0.0315964029454776]],[[0.053010320557807564,0.010877112258322077],[0.0549516465767613,-0.051626930330093364],[-0.01479046503653055,0.13448372113622145],[-0.0030616767139406663,-0.03577254929304434]],[[-0.08195769445673669,-0.08245372692250574],[-0.08320088850547833,-0.06602752105532851],[0.03250916559334961,0.023419801534699223],[-0.02237251145764363,0.042273246500475266]],[[0.08968871213281784,-0.11489258229184436],[-0.0014377826783831627,0.04994486543994847],[-0.006443708894862377,-0.21009280801727756],[-0.00859947899459181,-0.08282127188167461]],[[-0.043517246637239514,0.008191399634013155],[0.016791617357887725,0.029285069760811723],[-0.0010758256516515184,-0.010280681671634269],[0.015797607636585317,-0.05339539768175259]],[[-0.051778411827731026,-0.04772962812096998],[-0.05099290446757192,0.04694252119761921],[0.007462008898458874,-0.02586584928349544],[0.034052467888591585,0.014725741095262942]],[[-0.005494365585753566,0.05071635656709515],[-0.012796241392107449,0.07516827015318968],[0.020258998389562858,-0.03250336402707427],[-0.044857383642198524,0.02701072010187399]],[[-0.024694646632284677,0.04385288846518416],[0.04199983044547213,0.04536453170204353],[0.29884045843569523,0.08883523014882719],[0.006293696518477991,-0.012297077802641663]],[[-0.01711780398524033,0.0462633527382771],[-0.014111501354575694,0.025588954565445615],[0.12851848557188875,0.013815293083559567],[-0.02051672699421377,-0.012647476111698731]],[[0.03362450694628688,0.12090431477972245],[0.025375619419011872,-0.026202207517744675],[0.054729113260069386,0.0008743231574808676],[-0.01043547203008524,-0.023446302599682802]]],"Name":"Convolutional","OutputChannels":4,"Outputs":64,"UseBias":true},{"Name":"Lncosh","Size":64},{"Bias":[[-0.20544984720042564,-0.5865402894285476],[0.2853268686146616,-0.42369323251816743]],"InputChannels":4,"Inputs":64,"Kernels":[[[0.07170854531533404,-0.04683599662551297],[-0.19155067631854464,0.034057407120536405]],[[0.027491919574151473,-0.09254014242438782],[-0.03248251860377515,-0.028933634389380875]],[[0.07403909992059901,0.011168675681497665],[-0.3178931352210915,-0.07450702226314221]],[[-0.0010706947510003915,-0.04241957614095213],[0.009316977199908405,0.16834009148341358]],[[0.015458406953786953,0.003746634521092488],[0.018516589947430037,-0.12553942106226948]],[[-0.029640283571431753,0.08748677808175949],[0.17748848800264408,-0.08242770145563591]],[[0.01377483435228402,0.17848348691151708],[0.25492150378396233,-0.0031420916857299087]],[[0.0626682398973264,0.01949025578044135],[0.12741953188734134,-0.05627733709809099]],[[-0.09037662013041273,-0.07752041560187188],[-0.015453364573098748,0.1314244556048813]],[[-0.2615631592495856,-0.12846699294842878],[-0.03515767072590419,-0.08129776817421529]],[[-0.28568685046966824,-0.08776899186788953],[0.12937965478176366,0.21429464893023994]],[[-0.19487084782893238,-0.08930168997378628],[-0.023799020634803537,0.286091482667621]],[[-0.03740281770589691,-0.038433234188662645],[-0.02521892347672491,-0.015808256269432032]],[[-0.005046112854953608,-0.006219517490978185],[-0.012076107298556998,-0.0846074562683844]],[[0.016403300405544236,-0.04253016806129367],[-0.06572873987376791,-0.0640464151740316]],[[-0.09632698651312807,0.04346691639073524],[-0.07522464374989662,-0.08226257969183597]]],"Name":"Convolutional","OutputChannels":2,"Outputs":32,"UseBias":true},{"Name":"Lncosh","Size":32},{"Inputs":32,"Name":"Sum","Outputs":1}],"Name":"FFNN"}