{"Layers":[{"Bias":[[6.841411300138808e-08,9.303991652578594e-08],[-2.1506868291397525e-07,-2.9730136492504117e-08],[-2.131644477005435e-08,-4.749874078502331e-07],[-4.267497678807405e-09,-1.5121469048689662e-07],[1.0287842168538176e-07,1.9764703305657882e-07],[1.6803449350734515e-08,1.4102771020660792e-08]],"InputChannels":1,"Inputs":16,"Kernels":[[[0.07181877355898855,0.01264992403931745],[0.21224900863269794,-0.009688262088713923],[-0.0740512923011777,-0.2604921329715501],[0.07616027438703844,-0.11658266362363744],[0.10181372605399432,-0.15770823973800432],[0.02188581727453252,-0.17483286610327686]],[[0.1572798779002047,0.04972817413196291],[0.3124564620415743,0.06566103539755627],[0.17514458626095697,0.028600652339905063],[-0.1252481742620068,-0.14101877527737236],[0.16176176663686234,0.49171840193641436],[-0.28205225058792227,-0.507144535487873]],[[0.05708108004203536,0.10405634614605498],[0.30148788704116436,0.29007256667420056],[-0.039073314135647894,-0.04330747793107638],[-0.12575714684206651,-0.09756189239346824],[0.09067818064976782,-0.11200223285745003],[0.0014044383205964268,-0.08495596264863746]],[[-0.1116719257213577,-0.09744791793562708],[-0.33277807048851415,0.13967100169081326],[-0.17176536541814758,-0.1429071125196707],[-0.018836099841296302,0.007743813312384067],[0.07496771031859088,-0.07328723114465255],[0.021841329277665605,0.0672368641111531]],[[0.10989135306714126,0.05262431110168202],[0.03186108259521805,0.07669362781730223],[-0.143165165846586,0.008180899764216008],[-0.09053610121855954,-0.12277863425054224],[0.009048848418731733,-0.11800357687329578],[0.006361637961054295,0.09543880390800662]],[[-0.04998914242836972,0.11163824047497482],[0.3851072328047086,-0.21556614755226866],[-0.007328177859290641,-0.008282295004354758],[0.04446744901128826,0.09808844999611434],[0.007768375628617907,-0.10258458317754443],[0.018128937164739914,-0.17531434992289135]],[[-0.03591951298141498,0.023413807017572612],[-0.31257947468516917,0.13113561498349113],[-0.08857125563116985,0.024732896867369614],[-0.05869711286765088,0.1425384086303294],[-0.02017537051666673,-0.03347336669549837],[0.0029954954902244083,0.06342651098659036]],[[0.05009283049638937,-0.016221948528649967],[-0.08317251303088033,0.05305587098093408],[-0.19252780967505062,0.029656669730035654],[0.11310250924198209,-0.02357234699716917],[0.02731272595034615,-0.04936235600029159],[0.03250147990956737,0.09187024878132194]],[[0.08339737485168648,-0.11973091691780714],[0.07364204415286739,0.1520584966644952],[0.03647507353689005,-0.0014814268618680013],[0.000921837390130749,-0.08532046445316067],[-0.08470108802819003,-0.05665048228430987],[0.020071291596793245,0.10423565855958594]],[[0.010162418149856205,0.13541802953440807],[0.0075592394423414895,-0.08033409577308556],[0.2469978775965884,0.23684541877899196],[0.11615861652577829,0.25240024781178727],[-0.08603372084936564,-0.04077955001686745],[0.03451983882641055,0.08361255471615978]],[[-0.07049717263861305,0.040717067145929514],[-0.05596612214497817,-0.11932580540107497],[0.04532049638264742,0.017719706780947805],[0.039783213255171486,0.14188033611033354],[-0.035139194783254425,0.004944528746195509],[0.015522497189896067,0.10764130914188555]],[[0.01045724879757173,-0.11067612965931398],[-0.1032228675155075,-0.00585217304732742],[0.008751338601446801,-0.010379848775100307],[0.08432405488101848,0.06487382563093581],[-0.0839730918310474,-0.04139065044944269],[-0.002150013163047988,0.10749389585354872]],[[-0.03603058350006972,-0.13961116886837327],[-0.051686273010600976,-0.05642165373619468],[0.115749356166547,0.07078814987108717],[0.0573721706814601,0.03156058009106588],[-0.15379192731665708,0.06596225578903801],[-0.01011151277527976,0.12234984844245353]],[[-0.014161377462198796,0.05099645861801597],[0.010689239832061553,-0.2457648233509469],[-0.21721486741779852,0.3251391793165113],[-0.047332334953617175,0.07576724169683531],[0.019101476097956725,0.11205510474291198],[0.1487545171243862,-0.1398798980537453]],[[-0.1467201925556555,0.038231387722590736],[-0.21147074700917046,0.017224266512435346],[0.35917064994077175,-0.04417895250591921],[-0.0660122407146984,-0.09486394444219262],[0.010871880565562625,0.06969219697435129],[-0.007670390075647081,0.1192292678483831]],[[-0.04806297667771644,-0.11913129174542632],[-0.1873825868984018,-0.1729886220624304],[-0.006288771399638848,-0.19211257114890914],[0.12055110667720645,-0.06804088523857459],[-0.019031452408420923,0.00740442302606463],[0.006894728912384648,0.1012405543183169]]],"Name":"Convolutional","OutputChannels":6,"Outputs":96,"UseBias":true},{"Name":"Lncosh","Size":96},{"Bias":[[0.424202932158723,-0.34744830500176993],[0.8676814956791581,-0.19584702587609606],[-0.4282829073262399,0.0939593630211941],[0.19817302445014867,-0.46203877135318844]],"InputChannels":6,"Inputs":96,"Kernels":[[[0.0455768376971224,0.47310797264694865],[0.03199632626907083,0.1150215346175027],[-0.38936455919057156,0.15927650237253488],[-0.2805944225622549,-0.43671365329228035]],[[-0.34516921987560234,0.5047881002851128],[0.061016618093635226,-0.25160436879927034],[-0.41076917142647085,0.7021132285373712],[-0.20392003179163973,-0.14659602653744838]],[[-0.5507546093396387,0.3474573666287406],[-0.0692865919949147,0.4331466883863667],[-0.6105287765462705,-0.10474858647257927],[0.02901217586712022,-0.19599179970438044]],[[-0.13430226801374642,0.19916037858782087],[-0.06158277922884897,0.6051209927768859],[-0.014494189962435242,0.08271320718274841],[0.03696501489284211,-0.06806083859583574]],[[0.09775898037902046,0.2272921930040769],[-0.0471876368116078,-0.10477554982483331],[0.18393475876672616,0.19578166013927287],[0.03614782448157741,-0.012289143979398166]],[[-0.11228921124878566,0.037732331966296495],[-0.04017875680715747,-0.08367700369372419],[-0.16379634881695632,-0.19246297176993443],[-0.03538372206350698,-0.21868904667566616]],[[0.008841093320050562,0.020483749979545773],[-0.10640945724504242,0.05950116298526766],[0.06855237577294447,0.22718391816741337],[-0.06044453541030544,0.06751759136120526]],[[0.030457533602717666,-0.058364977233581264],[-0.025315222198648193,-0.015781460145012468],[-0.05056170056894643,-0.010104244391927624],[-0.04627488212644913,-0.018680843896901767]],[[-0.08614602096208097,0.09701766593268657],[-0.15619288096488693,0.126635586199844],[0.323149475528302,0.34260089690112727],[0.22658094762727718,0.12860031426934976]],[[-0.014527884213412513,-0.0645594760049084],[-0.37666450981405314,-0.017915440166859],[-0.04681380387297193,0.2836560793489527],[0.09864101757775647,0.013566495391468729]],[[0.044638264850951924,0.05452664441999637],[0.3453649368732306,-0.12881989629122947],[0.11239792000252077,0.16541226903459266],[0.0014203728880481483,0.15890470112337873]],[[-0.10315426303414667,0.059121347001548585],[0.20663119313735193,-0.0920402757008168],[0.27157574872953233,0.24186007899808706],[0.03562471688067028,0.2563955248173923]],[[0.13416501280692333,0.5989506024456119],[0.24314866088790288,-0.33513630601254635],[0.30535316938931983,-0.06737197045790325],[-0.15069154666173112,-0.2405743928454619]],[[-0.2750637810830532,0.13024343633667487],[-0.20170121393133306,-0.14968984811778324],[0.08230334902350668,-0.2363804692142799],[-0.2771687353786043,0.3037328553375066]],[[0.08843820688529316,0.015278420630204107],[0.12939865468604478,0.023009722586889478],[-0.500109825807346,-0.2881323975151306],[0.028868455068147263,-0.5611050643803416]],[[0.09653146598400816,-0.4291615349549581],[0.25490773237113395,-0.006067745661449853],[-0.15308759619357962,-0.3070407762021542],[-0.016767013478894345,-0.15685102517603286]],[[0.5128797797310989,0.035436163769381634],[-0.30172469850802836,-0.04887193510110646],[0.2341391968350532,-0.18519657718816332],[-0.23227451853874684,-0.09782744909863793]],[[0.33674640770898295,0.46316107367991394],[-0.2838805474113027,0.039705729539789514],[0.1281532966304627,0.2711494072461199],[0.26769017845639353,0.2549685510213543]],[[0.1932509286339304,-0.579358136393742],[0.4508741655981092,-0.11939806834158483],[-0.20054578385550786,0.10162725388988632],[-0.08307866191937509,0.29955392150530746]],[[0.1700276173585325,0.08726954686712667],[0.23732011419187563,-0.21798199307366992],[0.09730743294720934,0.20646134796601479],[0.02003940162032221,-0.060728381581724236]],[[0.09371707897557818,0.138242605634942],[0.48916885505835617,0.055853621290069835],[-0.08539793870180216,0.1690627070683497],[-0.11707938327930509,0.29760503184750614]],[[0.2058867926126424,-0.13799206235299574],[0.1923979807542137,0.05049645951046595],[0.35716599289375517,0.134991991893652],[0.3316192257368196,-0.07580181264355522]],[[0.36698864615321464,-0.28997977713553136],[0.3054752484410139,0.6212085392859904],[-0.1696077005074334,-0.3102320547269529],[0.12241328871937257,0.038055961385355684]],[[0.25431523258417654,-0.21880481466231025],[0.051365420962215136,0.16977566758556734],[-0.10418468784046833,-0.2915117901439797],[0.5806538890866719,-0.3847944761542404]]],"Name":"Convolutional","OutputChannels":4,"Outputs":64,"UseBias":true},{"Name":"Lncosh","Size":64},{"Bias":[[0.42629183394886805,-0.4842128342785572],[0.4713044240842562,0.13820492716013108]],"InputChannels":4,"Inputs":64,"Kernels":[[[0.26342495227847307,0.02480617524303326],[0.6882388041343779,0.24784434985828085]],[[0.7591814664026891,-0.44393551083059923],[0.6421251802063707,0.4184975469929217]],[[-0.2606700367202395,0.7509109576758597],[-0.09042505426540105,0.1902649550605239]],[[0.258667176878023,0.48592364123537635],[-0.02944824563762485,-0.7025952675445042]],[[-0.24430109003531625,0.03396383745458633],[0.48880670211138966,0.29450580280011246]],[[0.4074714110891547,-0.30406079177964485],[0.5650412293611022,0.805207703612663]],[[0.10084076952614472,0.002220468864160881],[0.43713812195854973,0.0892045401195249]],[[-0.2343859431437906,-0.19782385014597006],[1.1548167541078835,0.28456714031502695]],[[0.26179002060097295,-0.03116361695047199],[-0.04556388388231291,-0.06936813449890095]],[[0.11093982161299912,0.086928121614845],[-0.34701782953852645,0.2990648603279438]],[[-0.06060525568810746,-0.38215800720344917],[0.10601029424056153,0.7606253406173809]],[[-0.1465329157955862,-0.5393028769018644],[-0.43752985833504,0.2338385275488782]],[[0.1788768471138717,-0.5685161165682714],[0.5122631674056054,-0.4035270828376155]],[[-0.06243230378247337,0.2627662574051467],[0.6492333354716849,-0.12171068128436129]],[[0.20222831293520646,0.1254876134780357],[0.5163658493519475,0.0771189901596328]],[[0.012195741112983364,0.17108398919788037],[-0.22371912996302679,-0.25100427711225015]]],"Name":"Convolutional","OutputChannels":2,"Outputs":32,"UseBias":true},{"Name":"Lncosh","Size":32},{"Inputs":32,"Name":"Sum","Outputs":1}],"Name":"FFNN"}