{"Layers":[{"Bias":[[-3.161850850880401e-07,-4.4496995612921365e-07],[6.178378699415583e-07,-4.697186919863598e-07],[1.5441495663457163e-06,5.830962555101093e-07],[-1.5345431017263421e-10,-3.205405969812886e-11],[-6.905438405437324e-07,-8.96130603675474e-09],[-1.8047250403804624e-08,-3.6443650430614378e-09]],"InputChannels":1,"Inputs":16,"Kernels":[[[0.016571705596068947,0.13506945290706657],[-0.02630385797118453,0.13852588083059977],[-0.046200612220526065,0.05801676612862453],[-0.15106518093957447,0.04830286045014722],[-0.1104816531327391,0.07408783414787164],[0.025592867204737794,0.024861798907113097]],[[-0.014441638293757116,-0.05153191041291072],[-0.24772627585251655,-0.19229049144504162],[-0.06997185414050254,0.11261090111177133],[-0.06456022895407329,0.24316774081789427],[-0.08149834085951732,-0.0789097940714868],[-0.016483731695594507,0.09965784440631413]],[[-0.036580155538517053,0.06146956523160603],[-0.19029044535012632,0.3481291447106733],[-0.14844886628107162,0.010653040647842211],[0.050739656519157704,0.03645899345691232],[-0.05943019544364519,0.010563647228241928],[0.008609206304397368,0.03243529295912542]],[[-0.06541063327345574,-0.122426904208891],[-0.15877377003534035,-0.20024180473138933],[0.10927787220370476,-0.04132082163833053],[0.04831744206632039,0.24757649506778634],[0.11255575256533898,-0.0641059726765231],[-0.02672013271825608,0.10424153411891628]],[[-0.04706083789720432,0.15529939601373804],[-0.35234347639641106,-0.20813876662215194],[0.03869223679989564,0.08823530731800737],[-0.0019236145659635622,-0.27187407724772933],[0.21554314707668434,0.2576919298670274],[-0.019288777555259186,0.1035271239647524]],[[-0.12514917463271824,0.024870088458019874],[0.3706367912351438,0.12336750305256354],[0.44517613097971037,-0.4687878848779949],[0.048155250791636385,-0.023833464315663095],[-0.1218678580545548,0.07893084514174147],[0.011877370413703658,0.020886370995412223]],[[0.022095212359509536,-0.13969604265132043],[-0.1714890137641106,-0.04297028114064422],[0.104127090705139,0.09244506534707506],[0.10067514509722046,0.17613347271038063],[0.5167030709518027,0.38309064047074104],[-0.027422079326213444,0.08785469625246753]],[[0.19687709839815215,-0.14248789516780036],[0.31289241052434,0.017969452191695087],[-0.1141689910941084,0.077156578997294],[0.01403724549497178,-0.031945226215199296],[-0.08034671404182238,0.047878081675012674],[0.012994125611181299,0.021462060789992906]],[[0.03764596087686179,0.1730025042762437],[0.14932185232615847,-0.038257831911149495],[-0.11812550594857119,0.006087829155774466],[-0.05405831196063585,-0.04141451309760066],[-0.1428481995273183,0.0833062171190186],[0.040717800605840467,0.02255737828560616]],[[0.10678580548672863,0.0753487327845813],[-0.26820593590828945,-0.02553557287577179],[0.010320184312760368,-0.023793716680627464],[-0.05074696325595996,0.11363380828702198],[-0.0076187598905449625,-0.14448977756498374],[-0.018122724249606814,0.09764111764718691]],[[-0.0765094823628101,0.09732677842118473],[0.04256689777078325,0.10714194234903548],[-0.20172260983841658,-0.008314949208857022],[0.37188592736557097,-0.22083805925789024],[-0.17041758389260336,0.02185758494390662],[0.014618663001176372,0.010058515605921612]],[[-0.15174250105173662,-0.17395315305529763],[-0.17483248901458348,0.0020518528674346114],[0.2000362907956431,-0.11441673855983202],[-0.03810560115325379,0.17134915159462452],[0.11163303483723326,-0.09632857552252157],[-0.02062657134189675,0.09588166759414826]],[[-0.05676702238980708,-0.12453959705066939],[-0.15224148825952608,-0.10993401346021309],[0.05915263489484117,0.049226769781898265],[-0.14878008210003993,0.09509192115165217],[0.1730900656388289,0.16802468161573839],[-0.025296722328027463,0.09719827189255012]],[[-0.06688147461904893,0.2036981902896273],[0.3257341417449316,0.2535176974164273],[-0.2854953336731916,0.0006901192255285239],[-0.016456046974034584,-0.053235456355875954],[-0.04126224107172791,0.08206578935535104],[0.016082794405171377,0.035290089424058944]],[[0.029233244648264094,-0.24427365755949199],[-0.11436478284355302,-0.0838783021124202],[0.08367333944885622,0.03304364810998239],[-0.012308348097903592,0.17574551629909452],[-0.27942774932093833,-0.09922409246655464],[-0.049309271559701745,-1.295472767784147]],[[-0.04386084403003757,0.06197198359467517],[0.20243558794092903,0.1611689075493786],[-0.13567076915356172,0.028964949612647863],[-0.004873972361069922,-0.09145578347889925],[-0.014460954820042329,0.11801748030809092],[0.014116173487832147,0.036203839120120686]]],"Name":"Convolutional","OutputChannels":6,"Outputs":96,"UseBias":true},{"Name":"Lncosh","Size":96},{"Bias":[[-0.0003853077321496968,-0.0005466035321927005],[-0.0026713884199923736,-0.002601059648683266],[-0.006453526439319497,-0.004214343119318461],[-0.0034507246285101485,-0.00047623269408141364]],"InputChannels":6,"Inputs":96,"Kernels":[[[-0.014917535186935893,-0.043099942796876504],[-0.06417607320073919,0.051403497638904644],[0.1505366427434881,0.11471119890587543],[0.1287107648811313,-0.11006653948091778]],[[-0.1671495436936198,-0.0035996547058361004],[-0.1320064878681353,-0.07303598657643624],[0.0007743657525800675,0.18310614114469057],[-0.05019079738488902,0.04580613871547859]],[[0.024617777549562327,0.1647199790026374],[0.08940215364447286,0.08771556751477064],[-0.06414566535184553,-0.06374299165813556],[0.07765615205177268,0.168635252050628]],[[-0.06481841870544552,-0.1511186601345306],[-0.05842133086950654,0.029419259538798963],[-0.03637508728786148,-0.07159140339104436],[-0.026276007293978963,-0.05687286455908268]],[[0.10570273388074763,0.11705901931867176],[0.1118444188828441,-0.04264759600457998],[0.050417845477287754,0.1652745950843989],[-0.09328166921335072,-0.002570120425900016]],[[-0.08292680948408031,-0.07537660288833321],[-0.1716040613130446,0.05668246049859021],[0.03442496057609396,-0.011540418458380481],[-0.04429497423514451,0.022513141071768984]],[[0.03422501262638599,0.030994549375259573],[-0.03822960302458979,0.024144964086343083],[-0.061005568212174094,0.022110810831875705],[-0.14345252332915856,-0.026420116326394735]],[[-0.04653158737158909,-0.02562366011727251],[-0.08644084177101442,0.014933656783290016],[-0.44381968544598005,-0.2459124555906591],[-0.205360111398546,0.11022813595062508]],[[0.048389312712840915,0.10892790827884155],[0.12543686610326915,0.09548877510831733],[0.15987024537353292,-0.1471185727088797],[-0.04557570723179553,-0.006114219705225376]],[[-0.07210504294445692,-0.06716843140653418],[-0.19918531484830365,-0.0785602644255814],[0.12207122129441271,-0.12909309274499833],[-0.19914169907741902,-0.34173538188516794]],[[0.03648776818098689,0.11128925017304468],[-0.0182397280694461,-0.012120117670314005],[-0.04520962713857507,-0.1380595613274717],[0.07944037935559736,0.009867757507478007]],[[0.011510500490872974,-0.2218144240415655],[0.012197590175336769,-0.19028396819482088],[0.07226093043862998,-0.09397366121136182],[-0.08980342744749563,-0.0962967009701805]],[[-0.041324464584058085,0.02160372684233693],[-0.05541983731996872,-0.22327784804801787],[0.10441501464012513,0.005346562444661381],[0.054871876991308556,0.09723644388251948]],[[-0.12945182817125833,-0.22866491632700217],[0.028402171880272564,-0.06276429749863013],[-0.20191644964203695,-0.013019911492057511],[0.0661783268096172,0.080176986578515]],[[0.25595916060171464,0.12333139437320637],[0.11633288985344391,-0.06651546000102924],[-0.03563531798976641,-0.1003982533948639],[0.1374337661553721,-0.08452105449536208]],[[-0.015904781143854754,-0.13192751572057865],[0.16104225885966753,0.04604669950359447],[0.1430536082008081,0.032399821304362156],[0.06775260096390821,-0.03614055892010352]],[[-0.033352553703449174,-0.02454895226059737],[0.0338469962849839,0.08096473291201156],[0.17576580551101081,0.053649397135612606],[0.0776217814630684,0.08320698003357259]],[[-0.05226939448251194,-0.03433952625544265],[0.20387148115477724,0.19861168511207603],[-0.2512725485205408,0.134304308143766],[-0.2183831509315154,0.06636334515553033]],[[0.10315028923815665,0.09168091067853804],[0.025442898579672864,0.14851725329188786],[-0.17623974769928055,0.05681079579367271],[0.004301463528955653,-0.13614864392633413]],[[0.01297067144450414,-0.12099038320923093],[-0.1269210785010516,-0.003856831677332461],[-0.1295141960289446,-0.01043190968633539],[0.015252813416854923,-0.008240575625469773]],[[-0.11079694294420514,-0.23314047322369125],[-0.14463008492304408,-0.15567303011593053],[0.12269393890004082,0.0027143661300873473],[-0.09043616248415698,-0.030286617184003932]],[[-0.08783276053363767,0.004456323412058079],[-0.10527277808221522,-0.06775228671077636],[0.012939730464253946,0.2130627120644948],[-0.0021454408471499645,-0.185676309365106]],[[0.1659157597203196,-0.21436424937883655],[-0.06173156318411633,0.030115538587388756],[0.002606164270902383,-0.03301543174306938],[0.36231912247056525,-0.15408232941401412]],[[-0.06560344645170124,0.11436453103483135],[-0.11573765319103674,-0.09629123029672994],[0.03761881308708347,0.08364064663135476],[-0.03719753653526902,-0.03278406821438987]]],"Name":"Convolutional","OutputChannels":4,"Outputs":64,"UseBias":true},{"Name":"Lncosh","Size":64},{"Bias":[[-0.006763725433573058,-0.006528007156188155],[0.005091416161822195,0.0030706764375213755]],"InputChannels":4,"Inputs":64,"Kernels":[[[-0.1429850033891321,0.15140340058415797],[-0.14037743921496984,-0.1089806563949963]],[[-0.11047555532232041,-0.03629308508696889],[-0.17620270737906057,0.23706740331066936]],[[0.1943056962497037,0.07463218565395473],[-0.019139529519034474,0.15401487876942532]],[[-0.18996138544067903,-0.14555916393073767],[-0.15662453072990007,-0.0516944990291507]],[[-0.030151399928884194,0.0007232724576605856],[-0.26697832572168156,-0.11429900012784182]],[[-0.046075591401288765,-0.010640974895656293],[0.047090253866538534,-0.0093904164011689]],[[-0.1864801404913165,-0.4437796426094617],[0.017259223698622123,0.07458758975205237]],[[-0.19161445027048443,-0.01963963967688546],[0.04513217940504703,0.03871967697353261]],[[0.08278674504595403,0.3281218050481743],[-0.2510962558166877,0.17735308316178436]],[[-0.0843651806844007,0.2298419370149294],[-0.23392751578693127,-0.2249634753192659]],[[0.05765815509152616,0.4689435388930785],[-0.067744209026592,0.09531057312539222]],[[-0.1631466207436041,0.12315922924732099],[-0.05173041041508751,0.022618853279906325]],[[-0.252943252406452,-0.1407840052243255],[-0.162401355884092,-0.11058376559789225]],[[-0.05279406229369729,-0.0441114675790151],[0.18134843698333308,0.1358958175851554]],[[0.15488783421359215,-0.36594497677715854],[-0.05487538972794646,0.039857799660145646]],[[0.04873658680994596,0.05739223792133845],[-0.2355051970056713,-0.1588416032841654]]],"Name":"Convolutional","OutputChannels":2,"Outputs":32,"UseBias":true},{"Name":"Lncosh","Size":32},{"Inputs":32,"Name":"Sum","Outputs":1}],"Name":"FFNN"}