{"Layers":[{"Bias":[[-2.6554329681951556e-08,1.174791074911357e-08],[1.4830688087774724e-08,1.2043438678022908e-08],[-3.0660861377757905e-08,2.0772165734868357e-09],[-1.084352558677775e-10,-1.4131595356787981e-08],[-5.889274630280107e-10,-6.824756029178042e-09],[3.1919396766081555e-08,1.5989337458009075e-08]],"InputChannels":1,"Inputs":16,"Kernels":[[[0.05121143333238261,0.02469972390627642],[0.13765664817697107,-0.04253827889154542],[-0.060453636907570156,-0.23865046697954537],[0.05682158249917382,-0.11583687959314055],[0.08996408580042022,-0.15186293607791146],[-0.009576812764383578,-0.17395809925870886]],[[0.1706371940574646,0.036267259315175215],[0.2219321968131944,0.03314974515995819],[0.14785858283465902,0.013443168695391663],[-0.09986127174243166,-0.15039979982628227],[0.15192462195149373,0.40267465788749485],[-0.33144847699482755,-0.4076261554523089]],[[0.03909487242471742,0.09734369676414703],[0.2745702431775616,0.35970264214512493],[-0.04179944856116872,-0.059819307008996264],[-0.13029680865434096,-0.08992669273271803],[0.09905549565360729,-0.12403685776216637],[-0.011399764904469563,-0.09057832227702946]],[[-0.07968051228747525,-0.08927954992009193],[-0.2604163390658937,0.11197989543435093],[-0.14878573712070034,-0.14822415346268503],[-0.019853024618789676,-0.009524425481864874],[0.0786672655848622,-0.05607734422422267],[0.016404621858200137,0.06814377631343378]],[[0.13510067729453165,0.04516886689689959],[0.02690128784105726,0.07228859401677615],[-0.14848495049755392,0.017516974240188925],[-0.10892645853359398,-0.11756746661155924],[0.010318745061237082,-0.09215755830108678],[0.021967238175099248,0.08069625577877129]],[[-0.0352969580387197,0.0955257754258104],[0.32964487178766466,-0.15504969356046053],[-0.02612470590929365,-0.026828629657798666],[0.035330939103837826,0.09442098628847853],[0.034066772741209055,-0.08969164462842155],[0.028022124617261425,-0.20558258336791352]],[[-0.02722087579759523,0.04302715943451629],[-0.2571069613903396,0.1300112579047376],[-0.11586798011869803,0.03356835928643747],[-0.028457505590889144,0.15300757850839902],[-0.017297837021171984,-0.04451647071131124],[0.015738200320147926,0.06471538931824919]],[[0.044997289172654054,-0.02625372542651114],[-0.06339580262463544,0.01690614285144918],[-0.20176532850248466,0.03970972138000153],[0.12083045505724832,-0.02389817160934942],[0.012327837336464746,-0.03343692740090413],[0.030073903323579784,0.09125985854451932]],[[0.06627699634668895,-0.14067110025123739],[0.030664094286870093,0.16783964010706862],[0.016063152169145608,-0.01362128827810796],[-0.010952012783738202,-0.07345520927778537],[-0.0875274403190495,-0.026651438363001077],[0.032151469216121685,0.10432021245385387]],[[0.017051240407693204,0.12976916869291485],[0.019350774284194426,-0.06945715222712978],[0.27227761693200353,0.20355588683854886],[0.09094668083927172,0.27152099231283544],[-0.08811629659046494,-0.0487102940816826],[0.03781183439186127,0.08592088243225295]],[[-0.05688647498937334,0.035002288358497204],[-0.042136670637003534,-0.12703864519088007],[0.04318826819350094,-0.0022029841894128893],[0.052640066661349995,0.15034052161701342],[-0.04824195850308091,0.001290536784902449],[0.03563093958015035,0.11101941720872656]],[[0.014447194739782818,-0.0830359264743784],[-0.06866295605430499,-0.017132370297667492],[0.013027737900086435,-7.873208612919356e-05],[0.10240812340811249,0.05227535998063895],[-0.09302764462610984,-0.03546390178631196],[0.017967589995385887,0.10661005039593204]],[[-0.050104039257459126,-0.13159341839889394],[-0.04194802305765388,-0.07672445739455348],[0.10743097132176772,0.04103782585666032],[0.04979619635973049,0.019968564813600778],[-0.13575203589283585,0.08054267136756846],[0.006600901644239963,0.10075218032902465]],[[-0.03065625971837725,0.0383716876123448],[0.0016712119537921548,-0.24816106955445597],[-0.17415656725492287,0.3881791322617858],[-0.05491025848431823,0.07158048280998089],[0.032247492528647094,0.09329336427364189],[0.09946573833964503,-0.17304413917283903]],[[-0.1496750953095581,0.044571021522428256],[-0.15860870006763902,0.0036605522152724523],[0.3548878077285147,-0.024124082738084262],[-0.05084096009592547,-0.09373615407360139],[0.008756252994280745,0.0654259353299368],[0.011012835149067835,0.11012810252959271]],[[-0.07216860947838068,-0.10225855518051088],[-0.15332233366440082,-0.1398059050088898],[0.010327576593647409,-0.18493966842746418],[0.11574627792641326,-0.07365639052095575],[-0.026886512113274808,0.0259128496718829],[0.028475500499229596,0.10887107867537375]]],"Name":"Convolutional","OutputChannels":6,"Outputs":96,"UseBias":true},{"Name":"Lncosh","Size":96},{"Bias":[[0.33300643606226693,-0.19030146075033796],[0.8044504416168223,-0.20460991049289978],[-0.3655312794772049,0.1842188437072133],[0.12758480620626853,-0.48097770655835526]],"InputChannels":6,"Inputs":96,"Kernels":[[[0.09965173323266682,0.42071346164056495],[0.06660597326274392,0.17290499242406274],[-0.3511939763372687,0.01489531804288411],[-0.3106835614085492,-0.5125924705411623]],[[-0.3842202075524415,0.30267926655012234],[-0.11922860892866087,-0.16482917681012116],[-0.44013120083637575,0.46572391307824096],[-0.06979031410785068,-0.12384269174323323]],[[-0.5159928916957132,0.24817863445433622],[-0.12081930664644408,0.4401160250211393],[-0.5310297524756702,-0.04911533406157943],[0.08126795833274543,-0.03589286438166561]],[[0.028462218519001388,0.03970350441393185],[0.02522564194827379,0.44514827241516763],[0.03535719476467588,0.2057590340920528],[0.06219531450035601,0.05884162727206902]],[[0.08515339803892848,0.17501455610391062],[-0.03550809321139301,-0.0401168343246017],[0.18619332740924002,0.15191573550450996],[0.05536680075230843,0.005816469727058143]],[[-0.09870186552588271,0.020538452248670916],[-0.05464966312407171,-0.07381365069092219],[-0.14886700780604528,-0.1733567339763894],[-0.025925546002542824,-0.20012375185317557]],[[0.01737985953554363,0.02385216552426476],[-0.08527433173749656,0.06774694353661882],[0.04717701136286906,0.12987542991633103],[-0.0667963675560635,0.046994530687939025]],[[0.023953467603194438,-0.03416498715105945],[-0.049311834425329645,-0.010671103124696288],[-0.07555459668245365,0.013253603657687095],[-0.022551100718116196,-0.003941507062884398]],[[-0.07524556638775523,0.055961345096023914],[-0.12474823658452892,0.11654012625347952],[0.21727162648219805,0.26435362791925415],[0.16746150244658792,0.08766563344676749]],[[-0.0251639744797337,-0.05180340167798636],[-0.2807675692377189,-0.03144198800187393],[-0.06561710446194162,0.2346209557560337],[0.06495301205224734,0.05567727027715647]],[[0.02525350696288502,0.015492904491870239],[0.31733755541548014,-0.13075061979235716],[0.09205789618735288,0.16613750928866036],[-0.04005655350951711,0.15731278462651654]],[[-0.05951622565140142,0.013267665600981398],[0.17448073456854182,-0.022151435913698166],[0.1940171757801451,0.2845791949852076],[0.05208032660427076,0.2371430722625542]],[[0.08537730454263025,0.3502703235960191],[0.29651961795288806,-0.22627000825965563],[0.31408590995012087,-0.07159569369031094],[-0.07437921742764998,-0.1995572139647215]],[[-0.22825431562003518,0.08938979146844517],[-0.1693034110037604,-0.13246893211007824],[-0.019879476428938083,-0.18951487462761288],[-0.21987062600296423,0.207082697438839]],[[0.04064273688221792,0.03082788984852547],[0.03348236029510515,-0.04079526350662901],[-0.38861574955507294,-0.21499279493070497],[0.0017977157801330403,-0.46640678982411693]],[[0.16562158997836285,-0.31529656246178744],[0.16221975903863442,-0.03195488407005959],[-0.12849970505220096,-0.318188252248426],[0.018027166437481177,-0.16054568705457004]],[[0.4128009609810987,0.14176966090781992],[-0.308751191833059,0.03336142307627985],[0.2319056048768646,-0.18028944696713267],[-0.11029137512160227,-0.19217499436346536]],[[0.21517842872765705,0.45512175188219695],[-0.28327119453012295,0.012111279429239421],[0.06021522034871239,0.19539616301271537],[0.301853304903368,0.3216006340643923]],[[0.25922102720474055,-0.4796784771821778],[0.31606666760357893,-0.09651260740276249],[-0.13858855484235222,0.05777781944405477],[-0.12889732330754972,0.25251523348399224]],[[0.23150560591786631,0.11538742594198004],[0.21097514617836513,-0.16345923068802531],[0.13077085707151814,0.24341117003744714],[-0.03340772729648595,-0.05020773652269475]],[[0.04813383968951738,0.06835405350816973],[0.5403618305590869,0.23236383736297067],[-0.10153044570545564,0.09162673103884507],[-0.23957241498730492,0.29555231053212694]],[[0.29060217905937147,-0.05735984399010766],[0.19381497509108095,0.15892676053362864],[0.3635998704580418,0.3509756510552561],[0.26918683832899265,0.06455085314466934]],[[0.36043040272548327,-0.05607939692666087],[0.16147792183482426,0.5355112171681463],[-0.12414003120936708,-0.24600330112532146],[0.13979899653841463,0.028379315979387407]],[[0.26689071834064065,-0.09248903769583224],[-0.08765819417223414,0.13140608409302124],[-0.05169174475206818,-0.22539121296676873],[0.6053831099647065,-0.1520169656180691]]],"Name":"Convolutional","OutputChannels":4,"Outputs":64,"UseBias":true},{"Name":"Lncosh","Size":64},{"Bias":[[0.4594315163754645,-0.46120024548127825],[0.3440362694406079,0.18124382476505832]],"InputChannels":4,"Inputs":64,"Kernels":[[[0.3915459298971326,0.028851234180820324],[0.4072086544796121,0.26856290252849224]],[[0.6251718267045345,-0.6245994478314867],[0.5725756806604227,0.3657954617552319]],[[-0.13145893229890282,0.6603765255153805],[-0.07099122522628463,0.28114966153702825]],[[0.1655178595384683,0.3319320850324939],[0.10894197740458378,-0.5773953851482424]],[[-0.26291397535109867,0.027221010770101157],[0.3456538269228142,0.15365091180992535]],[[0.3982860709345401,-0.2807935207254298],[0.3877340981630889,0.6854718366304088]],[[0.11560702563475402,-0.039804986294169495],[0.2766414432754636,0.05010356150412038]],[[-0.10281263745849652,-0.10803231751612015],[0.8439690116746328,0.3687018183609283]],[[0.24379095214394067,0.035166666294489356],[-0.06358798801221648,0.02946878200535851]],[[0.12241517899581782,0.07044335628882038],[-0.22903000669625448,0.20104035849750235]],[[-0.08389485836431883,-0.29473405874312997],[0.10127703237388537,0.6727255018943665]],[[-0.07326002686050724,-0.4095262240558558],[-0.26623676853029815,0.07715619960492281]],[[0.25750518186784704,-0.4727699763305107],[0.3427004712244751,-0.2685368637521197]],[[-0.015147423461756621,0.14371770670379344],[0.48329750721187203,0.08128454360772774]],[[0.1984946055015151,0.1125291181323095],[0.3621204082581879,0.0907949000867221]],[[-0.05811446148166961,0.08833146533573401],[-0.2152311710829102,-0.0886559922288939]]],"Name":"Convolutional","OutputChannels":2,"Outputs":32,"UseBias":true},{"Name":"Lncosh","Size":32},{"Inputs":32,"Name":"Sum","Outputs":1}],"Name":"FFNN"}